f2 0d 16 0a f0 f2 e6 13 01 21 ee 04 29 28 ff f2 11 fe f7 04 fd f6 d6 d7 f1 fd ed f4 0e 1a 1b e8 f4 0b 03 ff 0e dc cf f8 f9 d8 02 2e 06 fc 13 1b
03 f9 e8 fc 05 d8 3a f5 ee e1 31 0a 00 df 34 e4 f3 fb 01 c7 e3 ea ee e3 fe 01 e6 35 05 d7 ed 2c f2 f1 e7 17 fb 28 ee e4 f9 21 ed 12 28 f2 03 08
1e 23 02 e5 d4 db dc 13 d9 d4 ee 12 13 2f 01 06 2d 1f f9 e8 08 05 04 04 0e df 01 3c f7 09 08 32 0f f6 e8 c8 17 f6 05 fd 1c 08 20 30 03 ef e8 18
43 10 f8 04 ea d3 0d 08 03 fb 0d e5 e5 de e1 fd de fd 00 f1 05 16 22 1e 37 0a 05 f0 23 fb f8 f0 08 fa ec e9 2e 3f 49 ec fe f8 f3 df 01 00 18 f8
c6 da d7 03 07 3c 18 26 22 30 ee 36 fa e2 01 0f f5 00 e7 c8 14 02 09 f3 e2 0a 0b f8 fc f7 dd 05 fe be d2 1b 25 05 e0 03 f2 f3 20 0c f8 08 ed ee
e4 05 12 24 15 2a f8 b5 0d 10 f0 e3 f0 f6 e0 ed ed 02 17 2d 14 07 03 2b 38 fe 06 ff 0f 1d 00 05 fb 0d 19 31 fe ec fd ea 12 eb e4 c6 0b 0d 00 ed
d5 cc fc 02 ea 12 e5 bc 00 1a 05 d9 26 45 1a 0c f0 f6 07 3a e6 00 09 23 eb 0f f3 f4 d9 eb 05 ec df fd 24 fc f5 d1 11 13 e8 f4 e1 17 f4 f9 0f 00
40 3f 06 0e 08 e9 f3 24 fc e8 ec 39 e2 d5 ef ff 1c eb 00 0d f8 f0 05 0d db 04 04 ed f5 dd e9 e4 02 06 10 22 0b 03 fd 00 15 f0 08 00 ff 0e e4 ec
e1 08 0d fd 27 29 fb 13 e2 e3 18 da 16 40 fd 03 fd 17 f1 f0 f5 03 11 00 f9 de ec 09 03 10 15 fe 19 0c fd 02 ff d3 1c 1c f5 23 fc f1 dd e3 f3 f7
cf fc 1a f1 00 3d fb 01 2b 21 06 1c f2 cb d5 16 0a 02 fc ef 0f 0e e7 c9 f5 21 fa e0 00 0e eb 04 15 35 0d e6 df fc ff ef e2 09 f8 f7 f9 13 e0 f7
